// components/ml/model/model_data.cc
#include <cstddef>
#if defined(__cplusplus)
extern "C" {
#endif

alignas(16) extern const unsigned char g_model[] = {
0x1c,0x00,0x00,0x00,0x54,0x46,0x4c,0x33,0x14,0x00,0x20,0x00,
0x1c,0x00,0x18,0x00,0x14,0x00,0x10,0x00,0x0c,0x00,0x00,0x00,
0x08,0x00,0x04,0x00,0x14,0x00,0x00,0x00,0x1c,0x00,0x00,0x00,
0x80,0x00,0x00,0x00,0xd8,0x00,0x00,0x00,0x84,0x0a,0x00,0x00,
0x94,0x0a,0x00,0x00,0x98,0x1a,0x00,0x00,0x03,0x00,0x00,0x00,
0x01,0x00,0x00,0x00,0x04,0x00,0x00,0x00,0xee,0xf3,0xff,0xff,
0x0c,0x00,0x00,0x00,0x1c,0x00,0x00,0x00,0x38,0x00,0x00,0x00,
0x0f,0x00,0x00,0x00,0x73,0x65,0x72,0x76,0x69,0x6e,0x67,0x5f,
0x64,0x65,0x66,0x61,0x75,0x6c,0x74,0x00,0x01,0x00,0x00,0x00,
0x04,0x00,0x00,0x00,0x9c,0xff,0xff,0xff,0x12,0x00,0x00,0x00,
0x04,0x00,0x00,0x00,0x05,0x00,0x00,0x00,0x64,0x65,0x6e,0x73,
0x65,0x00,0x00,0x00,0x01,0x00,0x00,0x00,0x04,0x00,0x00,0x00,
0x4e,0xf5,0xff,0xff,0x04,0x00,0x00,0x00,0x07,0x00,0x00,0x00,
0x69,0x6e,0x70,0x75,0x74,0x5f,0x31,0x00,0x02,0x00,0x00,0x00,
0x34,0x00,0x00,0x00,0x04,0x00,0x00,0x00,0xdc,0xff,0xff,0xff,
0x15,0x00,0x00,0x00,0x04,0x00,0x00,0x00,0x13,0x00,0x00,0x00,
0x43,0x4f,0x4e,0x56,0x45,0x52,0x53,0x49,0x4f,0x4e,0x5f,0x4d,
0x45,0x54,0x41,0x44,0x41,0x54,0x41,0x00,0x08,0x00,0x0c,0x00,
0x08,0x00,0x04,0x00,0x08,0x00,0x00,0x00,0x14,0x00,0x00,0x00,
0x04,0x00,0x00,0x00,0x13,0x00,0x00,0x00,0x6d,0x69,0x6e,0x5f,
0x72,0x75,0x6e,0x74,0x69,0x6d,0x65,0x5f,0x76,0x65,0x72,0x73,
0x69,0x6f,0x6e,0x00,0x16,0x00,0x00,0x00,0xa8,0x09,0x00,0x00,
0xa0,0x09,0x00,0x00,0x8c,0x09,0x00,0x00,0x70,0x09,0x00,0x00,
0x5c,0x09,0x00,0x00,0x44,0x09,0x00,0x00,0x14,0x09,0x00,0x00,
0xc4,0x08,0x00,0x00,0xb4,0x03,0x00,0x00,0x64,0x03,0x00,0x00,
0xd4,0x00,0x00,0x00,0xcc,0x00,0x00,0x00,0xc4,0x00,0x00,0x00,
0xbc,0x00,0x00,0x00,0xb4,0x00,0x00,0x00,0xac,0x00,0x00,0x00,
0xa4,0x00,0x00,0x00,0x9c,0x00,0x00,0x00,0x94,0x00,0x00,0x00,
0x8c,0x00,0x00,0x00,0x6c,0x00,0x00,0x00,0x04,0x00,0x00,0x00,
0x1a,0xf6,0xff,0xff,0x04,0x00,0x00,0x00,0x58,0x00,0x00,0x00,
0x0c,0x00,0x00,0x00,0x08,0x00,0x0e,0x00,0x08,0x00,0x04,0x00,
0x08,0x00,0x00,0x00,0x10,0x00,0x00,0x00,0x28,0x00,0x00,0x00,
0x00,0x00,0x06,0x00,0x08,0x00,0x04,0x00,0x06,0x00,0x00,0x00,
0x04,0x00,0x00,0x00,0x01,0x00,0x00,0x00,0xeb,0x03,0x00,0x00,
0x00,0x00,0x0a,0x00,0x10,0x00,0x0c,0x00,0x08,0x00,0x04,0x00,
0x0a,0x00,0x00,0x00,0x02,0x00,0x00,0x00,0x02,0x00,0x00,0x00,
0x04,0x00,0x00,0x00,0x06,0x00,0x00,0x00,0x32,0x2e,0x31,0x35,
0x2e,0x31,0x00,0x00,0x7e,0xf6,0xff,0xff,0x04,0x00,0x00,0x00,
0x10,0x00,0x00,0x00,0x31,0x2e,0x31,0x34,0x2e,0x30,0x00,0x00,
0x00,0x00,0x00,0x00,0x00,0x00,0x00,0x00,0xec,0xe7,0xff,0xff,
0xf0,0xe7,0xff,0xff,0xf4,0xe7,0xff,0xff,0xf8,0xe7,0xff,0xff,
0xfc,0xe7,0xff,0xff,0x00,0xe8,0xff,0xff,0x04,0xe8,0xff,0xff,
0x08,0xe8,0xff,0xff,0x0c,0xe8,0xff,0xff,0xbe,0xf6,0xff,0xff,
0x04,0x00,0x00,0x00,0x80,0x02,0x00,0x00,0x04,0x53,0x52,0x5c,
0xce,0xd7,0x01,0x1d,0x29,0xaf,0x3f,0x0a,0x2d,0x0b,0xe7,0xa8,
0x16,0x81,0x81,0x6f,0x6f,0xa6,0x03,0x41,0x50,0xb1,0x91,0xbd,
0x44,0x1c,0x23,0xd4,0x5e,0x8d,0x64,0xc8,0xa1,0x60,0x46,0x6f,
0x61,0xbd,0xe3,0x21,0xb2,0x11,0x4e,0x12,0xe4,0xd2,0x6d,0xad,
0x54,0xb2,0x16,0x47,0x1e,0x5f,0x4c,0xb3,0x09,0xe3,0x2e,0x40,
0x36,0xbb,0x60,0x83,0xfb,0xcb,0xe4,0x9f,0x04,0x7f,0x4d,0xcc,
0xa8,0x1d,0xf8,0x4a,0xda,0x9d,0x81,0xf6,0x11,0x11,0x24,0xc8,
0x51,0x86,0xb1,0x32,0x15,0xa6,0x08,0xd1,0xd4,0xcd,0x0f,0x3d,
0xca,0x5e,0xde,0x11,0xf8,0x1c,0x0f,0x32,0xc0,0x5a,0x8f,0x2b,
0x04,0xb0,0x8a,0x1b,0x2c,0x5a,0x32,0x1c,0xbb,0xfb,0x11,0x91,
0xa7,0x11,0x00,0x7f,0x4e,0xcc,0xd2,0xb1,0x8a,0xa0,0x7b,0x42,
0x5c,0x00,0x2c,0xa2,0xda,0xc6,0x63,0xd1,0x31,0x42,0xd9,0xb1,
0x10,0x3d,0xb0,0xc7,0x7f,0x2f,0x6f,0xd2,0x02,0x0e,0x16,0xcd,
0x41,0x40,0x23,0x59,0x41,0x2a,0x44,0x9a,0xe1,0x9a,0x46,0x52,
0xe5,0x32,0x70,0x02,0x69,0x9c,0x1f,0xd1,0x10,0xdb,0x12,0xd9,
0x5d,0xe6,0x90,0x32,0x47,0x8f,0x81,0x0c,0x12,0x1e,0x1a,0xdc,
0x57,0xf6,0xc7,0xe1,0x63,0x68,0x4a,0x49,0x8b,0xbc,0x74,0x41,
0x6a,0xc2,0xeb,0xe5,0x2a,0x02,0xa8,0x79,0x32,0xf2,0x59,0x3e,
0x4f,0x45,0x43,0x92,0x14,0x27,0x6b,0xea,0x9a,0x02,0xfd,0x7f,
0x5f,0xfb,0xdd,0x03,0xe2,0x0a,0x3d,0xe0,0xc0,0xb3,0xb0,0xf9,
0x5f,0x7f,0xf1,0x53,0xc9,0xad,0xc9,0x74,0xbc,0xee,0xc6,0x1c,
0xa9,0xd0,0xfe,0xfc,0xb5,0x72,0xd7,0x53,0xaf,0x33,0x95,0x48,
0xf6,0xf8,0xce,0x67,0x51,0xe2,0x51,0xc5,0xa5,0x5d,0x35,0xe6,
0xb3,0xaf,0x9d,0x26,0xf6,0xf3,0x49,0x1f,0x11,0x92,0xc9,0xb5,
0x1c,0x31,0xd5,0x08,0xb4,0x46,0x81,0xec,0x22,0x4f,0xa9,0x1c,
0x1a,0xff,0xc6,0x18,0xd8,0x5b,0xe2,0x09,0x5b,0x3b,0x49,0x25,
0xbe,0xe3,0x0e,0xed,0x1b,0xac,0xa4,0xdb,0x61,0x5b,0x5a,0xdb,
0x88,0xd6,0xe8,0xbb,0x50,0x6c,0x3c,0x16,0x1b,0xec,0x9c,0x54,
0xe0,0x5f,0x7f,0xdc,0x1d,0x90,0x2b,0x68,0x35,0xa9,0x2f,0x32,
0x1d,0x43,0xe1,0xee,0xad,0x6b,0xf3,0x42,0xd1,0x6c,0x42,0x6a,
0x35,0xd3,0x91,0xa8,0xa3,0x7f,0xfb,0xb4,0xc6,0x7a,0x67,0xcc,
0x1e,0xcc,0xe5,0xb0,0x79,0x4a,0xb6,0x1b,0xd3,0x3e,0x08,0x42,
0x5f,0x01,0x67,0xef,0x43,0x16,0x69,0x0a,0x77,0xbd,0x14,0xf8,
0x3c,0x33,0x07,0x57,0x1b,0x2c,0x09,0xc1,0x90,0xb1,0x4f,0xa3,
0x2a,0xab,0x6e,0x75,0xb4,0x7a,0x21,0xff,0xba,0x34,0x76,0x29,
0x8c,0x1b,0x66,0xdc,0x35,0xeb,0x3b,0x61,0x81,0xf3,0x40,0xc7,
0xae,0xdf,0xac,0x6b,0x53,0x75,0xe6,0x7f,0x0b,0x3d,0x3c,0xbe,
0xf2,0xec,0x99,0x67,0x58,0xb8,0x1c,0x1b,0xe9,0x45,0xb1,0xcf,
0xe9,0x26,0x90,0xd5,0xfe,0x56,0xcd,0x82,0x91,0x24,0xcb,0x06,
0x0f,0xe3,0x55,0x98,0xdb,0xcc,0xaf,0xaf,0x58,0xc5,0x30,0xdb,
0x9f,0x72,0x2a,0x65,0x5c,0x21,0x46,0x81,0x9b,0x51,0xab,0xcc,
0x33,0x57,0x24,0xb2,0x4f,0xb6,0xd2,0xb1,0xdd,0x45,0xea,0x3f,
0xb9,0xf1,0xf2,0x75,0xe3,0x7f,0x4e,0x5d,0x16,0xd5,0xa0,0xd6,
0x08,0x3d,0x89,0x62,0xd5,0x91,0x8d,0xe7,0x20,0xef,0x0d,0xdf,
0x37,0xa4,0xb7,0xeb,0x49,0x21,0x01,0x1e,0xea,0x23,0xf1,0x1e,
0x31,0x83,0x81,0xdf,0xcc,0xf3,0xcb,0x2e,0xb7,0x88,0x91,0xea,
0x48,0xe4,0xfa,0x0d,0xa6,0x56,0x3d,0x8c,0x11,0xfb,0x1f,0x57,
0xff,0x1e,0xec,0x58,0x52,0x55,0x3c,0xe0,0x2e,0x07,0xe1,0xc2,
0x54,0x37,0x45,0xb2,0x9b,0x29,0x0a,0x81,0xbd,0xbe,0x00,0x91,
0xaf,0x3f,0xdf,0xe2,0x01,0x5a,0x2e,0x32,0xbd,0x2c,0xd4,0xda,
0x81,0xc1,0x43,0xa7,0xe5,0xb3,0xb5,0x21,0x81,0xdc,0xe3,0xf7,
0x09,0xa3,0xd2,0x1e,0x61,0x97,0x51,0x1d,0xb4,0x82,0xdf,0xc7,
0x1a,0x19,0x2c,0x39,0xd7,0x81,0x89,0xd9,0x8e,0xbe,0x00,0x4e,
0x4a,0xf9,0xff,0xff,0x04,0x00,0x00,0x00,0x40,0x00,0x00,0x00,
0x19,0x00,0x00,0x00,0x4d,0x00,0x00,0x00,0x33,0x00,0x00,0x00,
0x44,0x00,0x00,0x00,0xcb,0xff,0xff,0xff,0x45,0x00,0x00,0x00,
0x31,0x00,0x00,0x00,0xde,0xff,0xff,0xff,0xe8,0xff,0xff,0xff,
0x10,0x00,0x00,0x00,0x2a,0x00,0x00,0x00,0x25,0x00,0x00,0x00,
0x52,0x00,0x00,0x00,0x3b,0x00,0x00,0x00,0x3d,0x00,0x00,0x00,
0x39,0x00,0x00,0x00,0x96,0xf9,0xff,0xff,0x04,0x00,0x00,0x00,
0x00,0x05,0x00,0x00,0x01,0xcd,0xd0,0x0b,0x51,0xe0,0x09,0x66,
0xd0,0x1e,0xe8,0xe9,0xf8,0xfc,0xa0,0x74,0xbd,0xcf,0x7e,0x20,
0xa4,0x33,0x49,0xef,0x43,0x2d,0xae,0x21,0x45,0x27,0x1e,0xd4,
0x49,0x3a,0x07,0xa2,0xdb,0xd6,0x22,0x72,0x5e,0xde,0x9c,0x25,
0x35,0x3f,0x8f,0x78,0xe4,0xe5,0x46,0x22,0x14,0xd8,0x03,0x6d,
0xeb,0xef,0x37,0x10,0xef,0xcf,0xb8,0x06,0xd1,0x0a,0x7d,0xf4,
0x27,0xbf,0x7f,0xe1,0x63,0x3a,0x4d,0x01,0x05,0x5a,0xa5,0xd1,
0xea,0x2c,0xe2,0xe4,0x65,0xbd,0x05,0xa1,0x01,0xf2,0x19,0xe2,
0xa2,0xae,0x01,0xe7,0xbc,0xf3,0x09,0x3b,0x5c,0xf9,0xc5,0x44,
0xae,0xb3,0xa9,0x62,0x27,0xc6,0x52,0xeb,0x5d,0xc8,0x8c,0x96,
0xa4,0x8a,0x10,0xdf,0xdd,0xa3,0xcb,0xa6,0x91,0xa7,0xbf,0xa2,
0xef,0xc5,0xd6,0x38,0x31,0x41,0x4d,0x0b,0x46,0x10,0x27,0xd4,
0xbd,0x81,0x98,0xe6,0x15,0x91,0x47,0x97,0x3f,0x41,0xaf,0x20,
0xde,0x60,0x4c,0xbd,0xdd,0xb9,0x06,0x83,0xb0,0x03,0xdc,0xcc,
0x20,0xe0,0x6c,0x6b,0x44,0x30,0xda,0x6a,0x0e,0x12,0xf6,0xd2,
0x61,0x95,0xc5,0xad,0x08,0xfc,0x1b,0xe3,0xfc,0x93,0x35,0xd3,
0xe4,0x4c,0x26,0x6f,0x33,0x25,0x36,0x37,0xfe,0xb8,0x18,0xd0,
0xd4,0x9a,0xf5,0x63,0x32,0x28,0xc6,0xdc,0x20,0x9d,0x2e,0xe8,
0x1a,0x3d,0x30,0x3b,0xe1,0x03,0xc5,0xc9,0x99,0x7f,0xc2,0xe4,
0x3a,0xa3,0x30,0x29,0xde,0x18,0x4e,0x3f,0xbf,0x0f,0xd3,0x30,
0x47,0x76,0x39,0xfd,0xcb,0x4e,0xee,0x74,0x67,0x7b,0xf7,0x1a,
0xf7,0x5c,0x18,0x62,0xf3,0x1b,0xe5,0x3a,0x01,0x56,0xa6,0xc1,
0xcc,0xd6,0x04,0x04,0x11,0x59,0xc3,0x21,0xd1,0xe5,0x0f,0xa9,
0x4b,0xe1,0x0c,0x19,0x05,0x53,0x1d,0x35,0x13,0x7b,0x54,0x9c,
0x7d,0xc7,0xd1,0xea,0x0d,0xdb,0x3f,0x7f,0xcb,0x10,0xcb,0x8b,
0xfc,0xf4,0x73,0xfe,0x49,0xfe,0xe0,0xb3,0xc6,0x72,0x2d,0x6b,
0xd6,0xc1,0x06,0xb2,0x30,0xfb,0x68,0x0b,0x02,0x44,0xe4,0x0b,
0x5d,0x11,0x00,0x7f,0xdb,0x21,0x9f,0x3d,0xdb,0x5e,0x22,0x45,
0xc4,0xa0,0x1b,0xc8,0xcb,0x50,0x05,0x0b,0x10,0x18,0x1c,0xb1,
0xf8,0x36,0xe0,0x27,0x64,0x2f,0xe7,0xbe,0x71,0xeb,0x9f,0x54,
0xfb,0x65,0x36,0x48,0x35,0x1a,0x27,0x24,0x7b,0xcd,0x0d,0xee,
0x6a,0x20,0xe6,0x58,0x02,0x59,0x52,0xdd,0xd2,0xdc,0xe3,0x6b,
0x77,0x40,0x03,0xfd,0xbf,0x59,0xc4,0x35,0xaf,0x51,0xa0,0xca,
0x5f,0x3d,0xc9,0x42,0x03,0xca,0x10,0xe8,0xa6,0x44,0x2a,0xe9,
0x53,0xf5,0xd9,0x6c,0x0a,0x41,0x20,0x02,0xf3,0x0e,0x49,0xb7,
0xba,0x22,0x7f,0xe8,0x02,0x12,0x38,0x4f,0xd1,0xc2,0xba,0xc4,
0xb5,0x3c,0x31,0xbf,0x14,0x0d,0xf2,0x22,0xcd,0xe3,0xf2,0x60,
0xfc,0xef,0xc2,0x17,0xb6,0x14,0xb8,0xb5,0xf2,0xd6,0x14,0xc1,
0xe0,0x40,0x29,0x59,0xd4,0xb4,0x16,0xb2,0x4f,0xe7,0xf2,0xc8,
0xbd,0x4d,0x67,0xca,0x26,0xd7,0x2d,0x1e,0x60,0xb2,0x2d,0xba,
0x42,0xad,0xee,0x22,0xce,0x15,0x46,0xff,0x40,0xa0,0xc4,0x7f,
0x18,0x36,0xc4,0x19,0x28,0x2a,0x20,0x36,0x1c,0x44,0x06,0xff,
0xa6,0x2b,0x09,0x2d,0x77,0x3d,0x89,0xcc,0xc8,0xf6,0x23,0x72,
0xf4,0xa2,0xef,0x33,0x5b,0xe8,0x1b,0x6e,0x77,0x96,0xc9,0xf8,
0xbb,0x72,0x25,0xc9,0xb5,0xce,0xf0,0x49,0x31,0x34,0xd9,0xc8,
0xbb,0x8d,0xea,0x24,0xd3,0x28,0x0a,0xc5,0x28,0x94,0x34,0xee,
0x49,0x8d,0x78,0x3c,0x7c,0x32,0x01,0xe0,0x03,0x77,0xbd,0xd3,
0x1b,0x4d,0x98,0x60,0xd6,0x73,0xc0,0xe4,0xd9,0xf9,0xee,0x6e,
0xca,0x01,0x62,0x32,0xfd,0x4f,0xca,0x0d,0xf3,0x7f,0xe0,0xc3,
0x2b,0xb5,0xef,0xaf,0xe5,0xf2,0x57,0xcb,0xe4,0x13,0x2d,0x37,
0x2f,0xd0,0x24,0xd3,0x4a,0x17,0x08,0x3d,0x60,0xd6,0x3b,0x46,
0x08,0x1b,0xb2,0x43,0x14,0x31,0xfc,0xe9,0xe6,0xc9,0x4e,0xc1,
0x01,0xa9,0x79,0x4d,0xfc,0x35,0xef,0x08,0x3e,0xcf,0xcf,0xce,
0xe9,0x42,0x79,0x0b,0x53,0x9f,0xb9,0x69,0x48,0x39,0xc8,0xd3,
0x64,0xcf,0x11,0x19,0xb0,0xfc,0xe7,0xa6,0xf8,0xe7,0x2a,0xf5,
0x42,0xda,0x26,0xe0,0xea,0x4c,0x49,0xbd,0x4c,0x5d,0xd8,0x24,
0x05,0xaa,0xd7,0x0d,0xc2,0x37,0xc6,0xc7,0xdd,0x7f,0xd2,0x31,
0x9d,0xdc,0x13,0xd9,0x40,0x3a,0x2e,0xed,0xe7,0x54,0xef,0x5e,
0x3f,0xd8,0xdf,0x45,0x48,0x1d,0x6f,0xcb,0x59,0x20,0x20,0xce,
0xff,0x7d,0xfa,0xde,0x5d,0x1c,0x14,0xb8,0x31,0x26,0xf9,0xee,
0x34,0xd7,0x7b,0x4c,0xde,0x21,0x0b,0xbf,0xb2,0xae,0x39,0x0e,
0x02,0x14,0x2c,0x71,0xc6,0x21,0x33,0x16,0xc5,0xf3,0x5c,0xa1,
0x5c,0x8f,0x8f,0xb1,0xda,0x31,0xee,0xa3,0x27,0xaf,0x20,0x14,
0xa5,0x5a,0xee,0xf2,0x58,0x12,0x20,0xab,0xcf,0xd3,0x47,0xa9,
0x48,0x3f,0xec,0x79,0xf6,0xdc,0xcb,0xf6,0x28,0xee,0x36,0xdf,
0xdd,0x0b,0x2e,0xd7,0xc9,0x45,0x1f,0x7f,0x29,0x5b,0x13,0xe7,
0x41,0x3a,0xa1,0xb6,0x2a,0x20,0xd3,0xbe,0xe6,0x55,0x9c,0xcf,
0x07,0x00,0x52,0x9f,0xb7,0xd1,0x7b,0xf1,0xe6,0x38,0x20,0x3f,
0xee,0x78,0x3f,0x7f,0x09,0x11,0xc0,0x15,0xe8,0xd4,0x03,0xf2,
0x4d,0x2e,0xb2,0xf2,0x46,0xd9,0x31,0x41,0x0d,0xe7,0x58,0x00,
0xc9,0x02,0x5c,0xfd,0xe4,0x95,0xc0,0xbf,0xc1,0xde,0x25,0x2e,
0x41,0x47,0xe7,0x3d,0xea,0x16,0x76,0x1b,0xe2,0x49,0xb1,0x4e,
0xce,0x67,0xa2,0xb9,0x12,0x8f,0x1f,0xc5,0x34,0xfc,0x6a,0xde,
0x32,0x97,0xa8,0x1f,0x95,0xfc,0x0c,0x13,0xce,0x01,0x09,0xef,
0xf5,0xea,0x2a,0x38,0x12,0x9a,0x4d,0xf4,0xdd,0x6a,0xe2,0x6f,
0x26,0x04,0xdd,0x42,0x55,0xd3,0x75,0xed,0xe2,0x51,0xb1,0xf0,
0xea,0xe0,0xfd,0x6d,0x0b,0xc8,0x7f,0x49,0xd4,0xa5,0xe4,0x5a,
0xec,0x9c,0xba,0x0e,0x21,0x4c,0xb5,0x5f,0xfd,0xda,0x01,0xa9,
0xe1,0xee,0xf4,0xee,0x07,0x1f,0x31,0xf5,0x31,0x0c,0x16,0x1c,
0x48,0xaa,0xd4,0x06,0x2c,0x12,0x12,0xba,0x08,0xbc,0xed,0xbd,
0xb8,0x46,0x22,0x04,0x9f,0x48,0xcd,0x33,0x21,0xb2,0xf2,0xd5,
0xe8,0x23,0x15,0x81,0x51,0x8a,0xb5,0xb5,0x08,0x22,0x95,0x5d,
0xea,0xcd,0x15,0xb0,0xa1,0x25,0x31,0x33,0xcc,0x12,0xe0,0xd9,
0x8c,0x3b,0x92,0x02,0xc3,0xa3,0xc0,0xcc,0xf6,0xe3,0xe7,0x9d,
0xa3,0x9c,0xb7,0xe2,0x3f,0x29,0x1b,0x54,0xa6,0x8b,0x18,0x38,
0xbb,0xc6,0x3a,0xd3,0xcc,0x15,0xba,0xb5,0xfa,0xc3,0xeb,0xdd,
0xf4,0xfc,0x92,0xad,0x29,0x46,0x14,0xae,0xc4,0x86,0xf7,0xe1,
0x43,0x33,0x40,0xdc,0x1f,0x92,0xf7,0xe8,0x75,0x83,0xbe,0x2b,
0xfd,0xc2,0x17,0xec,0xf7,0xc2,0x6b,0xc4,0xcf,0xc0,0x6e,0x53,
0xbb,0xcc,0xda,0x37,0x43,0xeb,0xb0,0xf3,0x3b,0x34,0xfa,0x3d,
0x34,0xc0,0x45,0x2d,0x2f,0x31,0x36,0x21,0x07,0x6c,0x03,0xbe,
0xbc,0x3a,0x62,0xd4,0x98,0xb9,0x5b,0x42,0x00,0x04,0xf5,0x6d,
0x99,0x5f,0xe8,0x5b,0x50,0xb5,0x5d,0x21,0x2c,0x14,0x51,0x7c,
0x1c,0x29,0x10,0x2a,0x34,0x7f,0xcb,0x31,0x0f,0x19,0xa9,0x3d,
0xaa,0x67,0x66,0x27,0xdb,0x10,0xb6,0x42,0xd3,0x23,0xc0,0x07,
0xf9,0x33,0x7f,0x42,0x5d,0xf4,0x27,0xff,0x99,0x04,0x40,0x43,
0xae,0x43,0xbf,0xdb,0x9a,0xe4,0x50,0xa4,0x73,0xcd,0xa6,0x01,
0x1f,0xa4,0x3d,0x14,0xe7,0x09,0xf3,0xc4,0xe4,0xad,0x60,0x9e,
0x0d,0xa4,0x7b,0xe3,0x72,0xe2,0x89,0xb1,0xa7,0x7e,0xd3,0x18,
0x03,0xa5,0xe0,0xac,0xd7,0x4a,0xbc,0x66,0xf4,0x58,0x3b,0x34,
0x1e,0x5d,0xf3,0xf7,0xc3,0xae,0xb6,0xa4,0x28,0xca,0xbc,0xe1,
0x4a,0x5c,0x46,0x57,0xf5,0xa0,0x0a,0xd3,0xd2,0x51,0x90,0x11,
0x93,0x9a,0x9f,0xae,0xa9,0x11,0x96,0xa4,0x3c,0xd1,0xe5,0xbb,
0x0b,0x1a,0xa6,0x39,0x2b,0x5a,0xe2,0xcd,0x55,0x08,0x39,0x12,
0xbf,0x69,0x89,0xe5,0x10,0xcc,0x0e,0x84,0x49,0x09,0xbd,0x3c,
0xb1,0x34,0xbf,0xd3,0xbc,0xfc,0xfe,0x51,0x35,0xd4,0x78,0x41,
0xcc,0xf5,0x84,0x4f,0x56,0x59,0x97,0x92,0x81,0x0d,0x33,0xc0,
0xa2,0xfe,0xff,0xff,0x04,0x00,0x00,0x00,0x40,0x00,0x00,0x00,
0xd2,0xff,0xff,0xff,0x5c,0xff,0xff,0xff,0x58,0x00,0x00,0x00,
0x72,0x01,0x00,0x00,0x62,0x01,0x00,0x00,0x82,0xff,0xff,0xff,
0x40,0x01,0x00,0x00,0x85,0x01,0x00,0x00,0xb8,0x01,0x00,0x00,
0x59,0xff,0xff,0xff,0xdb,0x00,0x00,0x00,0xd5,0x00,0x00,0x00,
0x19,0xff,0xff,0xff,0x7c,0xff,0xff,0xff,0x59,0x00,0x00,0x00,
0x36,0xff,0xff,0xff,0xee,0xfe,0xff,0xff,0x04,0x00,0x00,0x00,
0x20,0x00,0x00,0x00,0x3d,0x5b,0x1f,0x11,0x8e,0x05,0x7a,0x9e,
0x2e,0x66,0x45,0x6a,0x44,0x28,0x47,0x57,0x05,0xc3,0xf8,0x67,
0x36,0xdb,0x55,0x7f,0x7e,0x65,0x96,0xe3,0x1f,0x09,0x39,0x46,
0x1a,0xff,0xff,0xff,0x04,0x00,0x00,0x00,0x08,0x00,0x00,0x00,
0xd5,0xfd,0xff,0xff,0x2b,0x02,0x00,0x00,0x2e,0xff,0xff,0xff,
0x04,0x00,0x00,0x00,0x04,0x00,0x00,0x00,0x01,0x00,0x00,0x00,
0x3e,0xff,0xff,0xff,0x04,0x00,0x00,0x00,0x0c,0x00,0x00,0x00,
0xff,0xff,0xff,0xff,0x4b,0x00,0x00,0x00,0x10,0x00,0x00,0x00,
0x56,0xff,0xff,0xff,0x04,0x00,0x00,0x00,0x04,0x00,0x00,0x00,
0xfd,0xff,0xff,0xff,0xb8,0xf0,0xff,0xff,0xbc,0xf0,0xff,0xff,
0x0f,0x00,0x00,0x00,0x4d,0x4c,0x49,0x52,0x20,0x43,0x6f,0x6e,
0x76,0x65,0x72,0x74,0x65,0x64,0x2e,0x00,0x01,0x00,0x00,0x00,
0x14,0x00,0x00,0x00,0x00,0x00,0x0e,0x00,0x18,0x00,0x14,0x00,
0x10,0x00,0x0c,0x00,0x08,0x00,0x04,0x00,0x0e,0x00,0x00,0x00,
0x14,0x00,0x00,0x00,0x1c,0x00,0x00,0x00,0x34,0x02,0x00,0x00,
0x38,0x02,0x00,0x00,0x3c,0x02,0x00,0x00,0x04,0x00,0x00,0x00,
0x6d,0x61,0x69,0x6e,0x00,0x00,0x00,0x00,0x09,0x00,0x00,0x00,
0xec,0x01,0x00,0x00,0x8c,0x01,0x00,0x00,0x54,0x01,0x00,0x00,
0x18,0x01,0x00,0x00,0xd4,0x00,0x00,0x00,0xac,0x00,0x00,0x00,
0x78,0x00,0x00,0x00,0x40,0x00,0x00,0x00,0x04,0x00,0x00,0x00,
0xa2,0xfe,0xff,0xff,0x1c,0x00,0x00,0x00,0x00,0x00,0x00,0x09,
0x1c,0x00,0x00,0x00,0x20,0x00,0x00,0x00,0x05,0x00,0x00,0x00,
0x00,0x00,0x06,0x00,0x08,0x00,0x04,0x00,0x06,0x00,0x00,0x00,
0x00,0x00,0x80,0x3f,0x01,0x00,0x00,0x00,0x12,0x00,0x00,0x00,
0x01,0x00,0x00,0x00,0x11,0x00,0x00,0x00,0xda,0xfe,0xff,0xff,
0x14,0x00,0x00,0x00,0x00,0x00,0x00,0x08,0x10,0x00,0x00,0x00,
0x14,0x00,0x00,0x00,0x04,0x00,0x00,0x00,0x88,0xf1,0xff,0xff,
0x01,0x00,0x00,0x00,0x11,0x00,0x00,0x00,0x03,0x00,0x00,0x00,
0x10,0x00,0x00,0x00,0x05,0x00,0x00,0x00,0x04,0x00,0x00,0x00,
0x0e,0xff,0xff,0xff,0x14,0x00,0x00,0x00,0x00,0x00,0x00,0x1b,
0x10,0x00,0x00,0x00,0x14,0x00,0x00,0x00,0x03,0x00,0x00,0x00,
0xbc,0xf1,0xff,0xff,0x01,0x00,0x00,0x00,0x10,0x00,0x00,0x00,
0x02,0x00,0x00,0x00,0x0f,0x00,0x00,0x00,0x03,0x00,0x00,0x00,
0x6e,0xff,0xff,0xff,0x0c,0x00,0x00,0x00,0x10,0x00,0x00,0x00,
0x02,0x00,0x00,0x00,0x01,0x00,0x00,0x00,0x0f,0x00,0x00,0x00,
0x02,0x00,0x00,0x00,0x0e,0x00,0x00,0x00,0x02,0x00,0x00,0x00,
0x62,0xff,0xff,0xff,0x14,0x00,0x00,0x00,0x00,0x00,0x00,0x01,
0x1c,0x00,0x00,0x00,0x20,0x00,0x00,0x00,0x01,0x00,0x00,0x00,
0x54,0xff,0xff,0xff,0x00,0x00,0x00,0x01,0x01,0x00,0x00,0x00,
0x01,0x00,0x00,0x00,0x01,0x00,0x00,0x00,0x0e,0x00,0x00,0x00,
0x03,0x00,0x00,0x00,0x0d,0x00,0x00,0x00,0x07,0x00,0x00,0x00,
0x06,0x00,0x00,0x00,0x46,0xff,0xff,0xff,0x10,0x00,0x00,0x00,
0x00,0x00,0x00,0x34,0x0c,0x00,0x00,0x00,0x10,0x00,0x00,0x00,
0x4c,0xf2,0xff,0xff,0x01,0x00,0x00,0x00,0x0d,0x00,0x00,0x00,
0x02,0x00,0x00,0x00,0x0c,0x00,0x00,0x00,0x01,0x00,0x00,0x00,
0x00,0x00,0x0a,0x00,0x10,0x00,0x0c,0x00,0x08,0x00,0x04,0x00,
0x0a,0x00,0x00,0x00,0x0c,0x00,0x00,0x00,0x10,0x00,0x00,0x00,
0x02,0x00,0x00,0x00,0x01,0x00,0x00,0x00,0x0c,0x00,0x00,0x00,
0x02,0x00,0x00,0x00,0x0b,0x00,0x00,0x00,0x02,0x00,0x00,0x00,
0x00,0x00,0x0e,0x00,0x18,0x00,0x14,0x00,0x10,0x00,0x0c,0x00,
0x0b,0x00,0x04,0x00,0x0e,0x00,0x00,0x00,0x20,0x00,0x00,0x00,
0x00,0x00,0x00,0x01,0x28,0x00,0x00,0x00,0x2c,0x00,0x00,0x00,
0x01,0x00,0x00,0x00,0x0c,0x00,0x10,0x00,0x00,0x00,0x0c,0x00,
0x08,0x00,0x07,0x00,0x0c,0x00,0x00,0x00,0x00,0x00,0x00,0x01,
0x01,0x00,0x00,0x00,0x01,0x00,0x00,0x00,0x01,0x00,0x00,0x00,
0x0b,0x00,0x00,0x00,0x03,0x00,0x00,0x00,0x0a,0x00,0x00,0x00,
0x09,0x00,0x00,0x00,0x08,0x00,0x00,0x00,0x00,0x00,0x0e,0x00,
0x14,0x00,0x00,0x00,0x10,0x00,0x0c,0x00,0x0b,0x00,0x04,0x00,
0x0e,0x00,0x00,0x00,0x10,0x00,0x00,0x00,0x00,0x00,0x00,0x34,
0x0c,0x00,0x00,0x00,0x10,0x00,0x00,0x00,0x14,0xf3,0xff,0xff,
0x01,0x00,0x00,0x00,0x0a,0x00,0x00,0x00,0x02,0x00,0x00,0x00,
0x00,0x00,0x00,0x00,0x01,0x00,0x00,0x00,0x01,0x00,0x00,0x00,
0x12,0x00,0x00,0x00,0x01,0x00,0x00,0x00,0x00,0x00,0x00,0x00,
0x13,0x00,0x00,0x00,0x0c,0x0d,0x00,0x00,0xa0,0x0c,0x00,0x00,
0x38,0x0c,0x00,0x00,0xd4,0x0b,0x00,0x00,0x64,0x0b,0x00,0x00,
0x00,0x0b,0x00,0x00,0xd4,0x09,0x00,0x00,0xb0,0x08,0x00,0x00,
0x8c,0x07,0x00,0x00,0x68,0x06,0x00,0x00,0xd4,0x05,0x00,0x00,
0xd0,0x04,0x00,0x00,0x00,0x04,0x00,0x00,0x68,0x03,0x00,0x00,
0x6c,0x02,0x00,0x00,0x94,0x01,0x00,0x00,0x0c,0x01,0x00,0x00,
0x80,0x00,0x00,0x00,0x04,0x00,0x00,0x00,0x56,0xf3,0xff,0xff,
0x00,0x00,0x00,0x01,0x18,0x00,0x00,0x00,0x20,0x00,0x00,0x00,
0x3c,0x00,0x00,0x00,0x13,0x00,0x00,0x00,0x00,0x00,0x00,0x09,
0x50,0x00,0x00,0x00,0x02,0x00,0x00,0x00,0xff,0xff,0xff,0xff,
0x02,0x00,0x00,0x00,0x3c,0xf3,0xff,0xff,0x08,0x00,0x00,0x00,
0x10,0x00,0x00,0x00,0x01,0x00,0x00,0x00,0x80,0xff,0xff,0xff,
0xff,0xff,0xff,0xff,0x01,0x00,0x00,0x00,0x00,0x00,0x80,0x3b,
0x19,0x00,0x00,0x00,0x53,0x74,0x61,0x74,0x65,0x66,0x75,0x6c,
0x50,0x61,0x72,0x74,0x69,0x74,0x69,0x6f,0x6e,0x65,0x64,0x43,
0x61,0x6c,0x6c,0x3a,0x30,0x00,0x00,0x00,0x02,0x00,0x00,0x00,
0x01,0x00,0x00,0x00,0x02,0x00,0x00,0x00,0xce,0xf3,0xff,0xff,
0x00,0x00,0x00,0x01,0x18,0x00,0x00,0x00,0x20,0x00,0x00,0x00,
0x40,0x00,0x00,0x00,0x12,0x00,0x00,0x00,0x00,0x00,0x00,0x09,
0x60,0x00,0x00,0x00,0x02,0x00,0x00,0x00,0xff,0xff,0xff,0xff,
0x02,0x00,0x00,0x00,0xb4,0xf3,0xff,0xff,0x08,0x00,0x00,0x00,
0x14,0x00,0x00,0x00,0x01,0x00,0x00,0x00,0xc2,0xff,0xff,0xff,
0xff,0xff,0xff,0xff,0x00,0x00,0x00,0x00,0x01,0x00,0x00,0x00,
0xdb,0xd2,0x19,0x3d,0x26,0x00,0x00,0x00,0x6d,0x6f,0x64,0x65,
0x6c,0x2f,0x64,0x65,0x6e,0x73,0x65,0x2f,0x4d,0x61,0x74,0x4d,
0x75,0x6c,0x3b,0x6d,0x6f,0x64,0x65,0x6c,0x2f,0x64,0x65,0x6e,
0x73,0x65,0x2f,0x42,0x69,0x61,0x73,0x41,0x64,0x64,0x00,0x00,
0x02,0x00,0x00,0x00,0x01,0x00,0x00,0x00,0x02,0x00,0x00,0x00,
0x56,0xf4,0xff,0xff,0x00,0x00,0x00,0x01,0x18,0x00,0x00,0x00,
0x20,0x00,0x00,0x00,0x40,0x00,0x00,0x00,0x11,0x00,0x00,0x00,
0x00,0x00,0x00,0x09,0x5c,0x00,0x00,0x00,0x02,0x00,0x00,0x00,
0xff,0xff,0xff,0xff,0x10,0x00,0x00,0x00,0x3c,0xf4,0xff,0xff,
0x08,0x00,0x00,0x00,0x14,0x00,0x00,0x00,0x01,0x00,0x00,0x00,
0x80,0xff,0xff,0xff,0xff,0xff,0xff,0xff,0x00,0x00,0x00,0x00,
0x01,0x00,0x00,0x00,0x1a,0xda,0x81,0x3c,0x23,0x00,0x00,0x00,
0x6d,0x6f,0x64,0x65,0x6c,0x2f,0x67,0x6c,0x6f,0x62,0x61,0x6c,
0x5f,0x61,0x76,0x65,0x72,0x61,0x67,0x65,0x5f,0x70,0x6f,0x6f,
0x6c,0x69,0x6e,0x67,0x31,0x64,0x2f,0x4d,0x65,0x61,0x6e,0x00,
0x02,0x00,0x00,0x00,0x01,0x00,0x00,0x00,0x10,0x00,0x00,0x00,
0xda,0xf4,0xff,0xff,0x00,0x00,0x00,0x01,0x18,0x00,0x00,0x00,
0x24,0x00,0x00,0x00,0x40,0x00,0x00,0x00,0x10,0x00,0x00,0x00,
0x00,0x00,0x00,0x09,0xa8,0x00,0x00,0x00,0x03,0x00,0x00,0x00,
0xff,0xff,0xff,0xff,0x4b,0x00,0x00,0x00,0x10,0x00,0x00,0x00,
0xc4,0xf4,0xff,0xff,0x08,0x00,0x00,0x00,0x10,0x00,0x00,0x00,
0x01,0x00,0x00,0x00,0x80,0xff,0xff,0xff,0xff,0xff,0xff,0xff,
0x01,0x00,0x00,0x00,0x52,0x73,0xa3,0x3d,0x6e,0x00,0x00,0x00,
0x6d,0x6f,0x64,0x65,0x6c,0x2f,0x63,0x6f,0x6e,0x76,0x31,0x64,
0x5f,0x31,0x2f,0x52,0x65,0x6c,0x75,0x3b,0x6d,0x6f,0x64,0x65,
0x6c,0x2f,0x63,0x6f,0x6e,0x76,0x31,0x64,0x5f,0x31,0x2f,0x42,
0x69,0x61,0x73,0x41,0x64,0x64,0x3b,0x6d,0x6f,0x64,0x65,0x6c,
0x2f,0x63,0x6f,0x6e,0x76,0x31,0x64,0x5f,0x31,0x2f,0x43,0x6f,
0x6e,0x76,0x31,0x44,0x2f,0x53,0x71,0x75,0x65,0x65,0x7a,0x65,
0x3b,0x6d,0x6f,0x64,0x65,0x6c,0x2f,0x63,0x6f,0x6e,0x76,0x31,
0x64,0x5f,0x31,0x2f,0x42,0x69,0x61,0x73,0x41,0x64,0x64,0x2f,
0x52,0x65,0x61,0x64,0x56,0x61,0x72,0x69,0x61,0x62,0x6c,0x65,
0x4f,0x70,0x00,0x00,0x03,0x00,0x00,0x00,0x01,0x00,0x00,0x00,
0x4b,0x00,0x00,0x00,0x10,0x00,0x00,0x00,0xae,0xf5,0xff,0xff,
0x00,0x00,0x00,0x01,0x18,0x00,0x00,0x00,0x28,0x00,0x00,0x00,
0x48,0x00,0x00,0x00,0x0f,0x00,0x00,0x00,0x00,0x00,0x00,0x09,
0xc8,0x00,0x00,0x00,0x04,0x00,0x00,0x00,0xff,0xff,0xff,0xff,
0x01,0x00,0x00,0x00,0x4b,0x00,0x00,0x00,0x10,0x00,0x00,0x00,
0x9c,0xf5,0xff,0xff,0x08,0x00,0x00,0x00,0x14,0x00,0x00,0x00,
0x01,0x00,0x00,0x00,0x80,0xff,0xff,0xff,0xff,0xff,0xff,0xff,
0x00,0x00,0x00,0x00,0x01,0x00,0x00,0x00,0x52,0x73,0xa3,0x3d,
0x84,0x00,0x00,0x00,0x6d,0x6f,0x64,0x65,0x6c,0x2f,0x63,0x6f,
0x6e,0x76,0x31,0x64,0x5f,0x31,0x2f,0x52,0x65,0x6c,0x75,0x3b,
0x6d,0x6f,0x64,0x65,0x6c,0x2f,0x63,0x6f,0x6e,0x76,0x31,0x64,
0x5f,0x31,0x2f,0x42,0x69,0x61,0x73,0x41,0x64,0x64,0x3b,0x6d,
0x6f,0x64,0x65,0x6c,0x2f,0x63,0x6f,0x6e,0x76,0x31,0x64,0x5f,
0x31,0x2f,0x43,0x6f,0x6e,0x76,0x31,0x44,0x2f,0x53,0x71,0x75,
0x65,0x65,0x7a,0x65,0x3b,0x6d,0x6f,0x64,0x65,0x6c,0x2f,0x63,
0x6f,0x6e,0x76,0x31,0x64,0x5f,0x31,0x2f,0x42,0x69,0x61,0x73,
0x41,0x64,0x64,0x2f,0x52,0x65,0x61,0x64,0x56,0x61,0x72,0x69,
0x61,0x62,0x6c,0x65,0x4f,0x70,0x3b,0x6d,0x6f,0x64,0x65,0x6c,
0x2f,0x63,0x6f,0x6e,0x76,0x31,0x64,0x5f,0x31,0x2f,0x43,0x6f,
0x6e,0x76,0x31,0x44,0x00,0x00,0x00,0x00,0x04,0x00,0x00,0x00,
0x01,0x00,0x00,0x00,0x01,0x00,0x00,0x00,0x4b,0x00,0x00,0x00,
0x10,0x00,0x00,0x00,0xa6,0xf6,0xff,0xff,0x00,0x00,0x00,0x01,
0x18,0x00,0x00,0x00,0x28,0x00,0x00,0x00,0x48,0x00,0x00,0x00,
0x0e,0x00,0x00,0x00,0x00,0x00,0x00,0x09,0x64,0x00,0x00,0x00,
0x04,0x00,0x00,0x00,0xff,0xff,0xff,0xff,0x01,0x00,0x00,0x00,
0x4b,0x00,0x00,0x00,0x10,0x00,0x00,0x00,0x94,0xf6,0xff,0xff,
0x08,0x00,0x00,0x00,0x14,0x00,0x00,0x00,0x01,0x00,0x00,0x00,
0x80,0xff,0xff,0xff,0xff,0xff,0xff,0xff,0x00,0x00,0x00,0x00,
0x01,0x00,0x00,0x00,0x4c,0x41,0x9d,0x3d,0x20,0x00,0x00,0x00,
0x6d,0x6f,0x64,0x65,0x6c,0x2f,0x63,0x6f,0x6e,0x76,0x31,0x64,
0x5f,0x31,0x2f,0x43,0x6f,0x6e,0x76,0x31,0x44,0x2f,0x45,0x78,
0x70,0x61,0x6e,0x64,0x44,0x69,0x6d,0x73,0x00,0x00,0x00,0x00,
0x04,0x00,0x00,0x00,0x01,0x00,0x00,0x00,0x01,0x00,0x00,0x00,
0x4b,0x00,0x00,0x00,0x10,0x00,0x00,0x00,0x3a,0xf7,0xff,0xff,
0x00,0x00,0x00,0x01,0x18,0x00,0x00,0x00,0x24,0x00,0x00,0x00,
0x40,0x00,0x00,0x00,0x0d,0x00,0x00,0x00,0x00,0x00,0x00,0x09,
0xa0,0x00,0x00,0x00,0x03,0x00,0x00,0x00,0xff,0xff,0xff,0xff,
0x4b,0x00,0x00,0x00,0x10,0x00,0x00,0x00,0x24,0xf7,0xff,0xff,
0x08,0x00,0x00,0x00,0x10,0x00,0x00,0x00,0x01,0x00,0x00,0x00,
0x80,0xff,0xff,0xff,0xff,0xff,0xff,0xff,0x01,0x00,0x00,0x00,
0x4c,0x41,0x9d,0x3d,0x66,0x00,0x00,0x00,0x6d,0x6f,0x64,0x65,
0x6c,0x2f,0x63,0x6f,0x6e,0x76,0x31,0x64,0x2f,0x52,0x65,0x6c,
0x75,0x3b,0x6d,0x6f,0x64,0x65,0x6c,0x2f,0x63,0x6f,0x6e,0x76,
0x31,0x64,0x2f,0x42,0x69,0x61,0x73,0x41,0x64,0x64,0x3b,0x6d,
0x6f,0x64,0x65,0x6c,0x2f,0x63,0x6f,0x6e,0x76,0x31,0x64,0x2f,
0x43,0x6f,0x6e,0x76,0x31,0x44,0x2f,0x53,0x71,0x75,0x65,0x65,
0x7a,0x65,0x3b,0x6d,0x6f,0x64,0x65,0x6c,0x2f,0x63,0x6f,0x6e,
0x76,0x31,0x64,0x2f,0x42,0x69,0x61,0x73,0x41,0x64,0x64,0x2f,
0x52,0x65,0x61,0x64,0x56,0x61,0x72,0x69,0x61,0x62,0x6c,0x65,
0x4f,0x70,0x00,0x00,0x03,0x00,0x00,0x00,0x01,0x00,0x00,0x00,
0x4b,0x00,0x00,0x00,0x10,0x00,0x00,0x00,0x06,0xf8,0xff,0xff,
0x00,0x00,0x00,0x01,0x18,0x00,0x00,0x00,0x28,0x00,0x00,0x00,
0x44,0x00,0x00,0x00,0x0c,0x00,0x00,0x00,0x00,0x00,0x00,0x09,
0xd0,0x00,0x00,0x00,0x04,0x00,0x00,0x00,0xff,0xff,0xff,0xff,
0x01,0x00,0x00,0x00,0x4b,0x00,0x00,0x00,0x10,0x00,0x00,0x00,
0xf4,0xf7,0xff,0xff,0x08,0x00,0x00,0x00,0x10,0x00,0x00,0x00,
0x01,0x00,0x00,0x00,0x80,0xff,0xff,0xff,0xff,0xff,0xff,0xff,
0x01,0x00,0x00,0x00,0x4c,0x41,0x9d,0x3d,0x90,0x00,0x00,0x00,
0x6d,0x6f,0x64,0x65,0x6c,0x2f,0x63,0x6f,0x6e,0x76,0x31,0x64,
0x2f,0x52,0x65,0x6c,0x75,0x3b,0x6d,0x6f,0x64,0x65,0x6c,0x2f,
0x63,0x6f,0x6e,0x76,0x31,0x64,0x2f,0x42,0x69,0x61,0x73,0x41,
0x64,0x64,0x3b,0x6d,0x6f,0x64,0x65,0x6c,0x2f,0x63,0x6f,0x6e,
0x76,0x31,0x64,0x2f,0x43,0x6f,0x6e,0x76,0x31,0x44,0x2f,0x53,
0x71,0x75,0x65,0x65,0x7a,0x65,0x3b,0x6d,0x6f,0x64,0x65,0x6c,
0x2f,0x63,0x6f,0x6e,0x76,0x31,0x64,0x2f,0x42,0x69,0x61,0x73,
0x41,0x64,0x64,0x2f,0x52,0x65,0x61,0x64,0x56,0x61,0x72,0x69,
0x61,0x62,0x6c,0x65,0x4f,0x70,0x3b,0x6d,0x6f,0x64,0x65,0x6c,
0x2f,0x63,0x6f,0x6e,0x76,0x31,0x64,0x5f,0x31,0x2f,0x43,0x6f,
0x6e,0x76,0x31,0x44,0x3b,0x6d,0x6f,0x64,0x65,0x6c,0x2f,0x63,
0x6f,0x6e,0x76,0x31,0x64,0x2f,0x43,0x6f,0x6e,0x76,0x31,0x44,
0x00,0x00,0x00,0x00,0x04,0x00,0x00,0x00,0x01,0x00,0x00,0x00,
0x01,0x00,0x00,0x00,0x4b,0x00,0x00,0x00,0x10,0x00,0x00,0x00,
0x06,0xf9,0xff,0xff,0x00,0x00,0x00,0x01,0x18,0x00,0x00,0x00,
0x28,0x00,0x00,0x00,0x48,0x00,0x00,0x00,0x0b,0x00,0x00,0x00,
0x00,0x00,0x00,0x09,0x60,0x00,0x00,0x00,0x04,0x00,0x00,0x00,
0xff,0xff,0xff,0xff,0x01,0x00,0x00,0x00,0x4b,0x00,0x00,0x00,
0x08,0x00,0x00,0x00,0xf4,0xf8,0xff,0xff,0x08,0x00,0x00,0x00,
0x14,0x00,0x00,0x00,0x01,0x00,0x00,0x00,0x36,0x00,0x00,0x00,
0x00,0x00,0x00,0x00,0x00,0x00,0x00,0x00,0x01,0x00,0x00,0x00,
0x7e,0x50,0xdf,0x3e,0x1e,0x00,0x00,0x00,0x6d,0x6f,0x64,0x65,
0x6c,0x2f,0x63,0x6f,0x6e,0x76,0x31,0x64,0x2f,0x43,0x6f,0x6e,
0x76,0x31,0x44,0x2f,0x45,0x78,0x70,0x61,0x6e,0x64,0x44,0x69,
0x6d,0x73,0x00,0x00,0x04,0x00,0x00,0x00,0x01,0x00,0x00,0x00,
0x01,0x00,0x00,0x00,0x4b,0x00,0x00,0x00,0x08,0x00,0x00,0x00,
0xfe,0xf9,0xff,0xff,0x00,0x00,0x00,0x01,0x14,0x00,0x00,0x00,
0xe8,0x00,0x00,0x00,0x0a,0x00,0x00,0x00,0x00,0x00,0x00,0x09,
0xf4,0x00,0x00,0x00,0x6c,0xf9,0xff,0xff,0x08,0x00,0x00,0x00,
0x8c,0x00,0x00,0x00,0x10,0x00,0x00,0x00,0x00,0x00,0x00,0x00,
0x00,0x00,0x00,0x00,0x00,0x00,0x00,0x00,0x00,0x00,0x00,0x00,
0x00,0x00,0x00,0x00,0x00,0x00,0x00,0x00,0x00,0x00,0x00,0x00,
0x00,0x00,0x00,0x00,0x00,0x00,0x00,0x00,0x00,0x00,0x00,0x00,
0x00,0x00,0x00,0x00,0x00,0x00,0x00,0x00,0x00,0x00,0x00,0x00,
0x00,0x00,0x00,0x00,0x00,0x00,0x00,0x00,0x00,0x00,0x00,0x00,
0x00,0x00,0x00,0x00,0x00,0x00,0x00,0x00,0x00,0x00,0x00,0x00,
0x00,0x00,0x00,0x00,0x00,0x00,0x00,0x00,0x00,0x00,0x00,0x00,
0x00,0x00,0x00,0x00,0x00,0x00,0x00,0x00,0x00,0x00,0x00,0x00,
0x00,0x00,0x00,0x00,0x00,0x00,0x00,0x00,0x00,0x00,0x00,0x00,
0x00,0x00,0x00,0x00,0x00,0x00,0x00,0x00,0x00,0x00,0x00,0x00,
0x00,0x00,0x00,0x00,0x00,0x00,0x00,0x00,0x10,0x00,0x00,0x00,
0x7a,0x9c,0xf5,0x3a,0xe6,0x07,0xff,0x3a,0xb7,0xf5,0x08,0x3b,
0x15,0xf6,0x09,0x3b,0x2c,0x37,0xd6,0x3a,0xc5,0xa2,0x06,0x3b,
0x52,0x37,0xf4,0x3a,0x02,0x63,0x08,0x3b,0x18,0x00,0xe7,0x3a,
0x3e,0x0c,0xfc,0x3a,0xad,0xb9,0x04,0x3b,0x90,0x4c,0xf5,0x3a,
0xc5,0x7f,0xfc,0x3a,0x51,0x80,0x0c,0x3b,0x36,0xf4,0x0b,0x3b,
0xa0,0x0c,0xfe,0x3a,0x13,0x00,0x00,0x00,0x6d,0x6f,0x64,0x65,
0x6c,0x2f,0x63,0x6f,0x6e,0x76,0x31,0x64,0x2f,0x43,0x6f,0x6e,
0x76,0x31,0x44,0x00,0x04,0x00,0x00,0x00,0x10,0x00,0x00,0x00,
0x01,0x00,0x00,0x00,0x05,0x00,0x00,0x00,0x08,0x00,0x00,0x00,
0x1e,0xfb,0xff,0xff,0x00,0x00,0x00,0x01,0x14,0x00,0x00,0x00,
0xe4,0x00,0x00,0x00,0x09,0x00,0x00,0x00,0x00,0x00,0x00,0x02,
0x00,0x01,0x00,0x00,0x8c,0xfa,0xff,0xff,0x08,0x00,0x00,0x00,
0x88,0x00,0x00,0x00,0x10,0x00,0x00,0x00,0x00,0x00,0x00,0x00,
0x00,0x00,0x00,0x00,0x00,0x00,0x00,0x00,0x00,0x00,0x00,0x00,
0x00,0x00,0x00,0x00,0x00,0x00,0x00,0x00,0x00,0x00,0x00,0x00,
0x00,0x00,0x00,0x00,0x00,0x00,0x00,0x00,0x00,0x00,0x00,0x00,
0x00,0x00,0x00,0x00,0x00,0x00,0x00,0x00,0x00,0x00,0x00,0x00,
0x00,0x00,0x00,0x00,0x00,0x00,0x00,0x00,0x00,0x00,0x00,0x00,
0x00,0x00,0x00,0x00,0x00,0x00,0x00,0x00,0x00,0x00,0x00,0x00,
0x00,0x00,0x00,0x00,0x00,0x00,0x00,0x00,0x00,0x00,0x00,0x00,
0x00,0x00,0x00,0x00,0x00,0x00,0x00,0x00,0x00,0x00,0x00,0x00,
0x00,0x00,0x00,0x00,0x00,0x00,0x00,0x00,0x00,0x00,0x00,0x00,
0x00,0x00,0x00,0x00,0x00,0x00,0x00,0x00,0x00,0x00,0x00,0x00,
0x00,0x00,0x00,0x00,0x10,0x00,0x00,0x00,0x88,0x40,0x56,0x3a,
0x11,0x78,0x5e,0x3a,0x35,0xf2,0x6e,0x3a,0x7a,0xb1,0x70,0x3a,
0x6a,0xdd,0x3a,0x3a,0x3d,0xe4,0x6a,0x3a,0xfa,0x08,0x55,0x3a,
0x42,0xf2,0x6d,0x3a,0xb7,0x81,0x49,0x3a,0xea,0xdd,0x5b,0x3a,
0xf2,0x8e,0x67,0x3a,0xd2,0xfa,0x55,0x3a,0xb1,0x42,0x5c,0x3a,
0xe8,0x1f,0x75,0x3a,0x78,0x2b,0x74,0x3a,0xe0,0x9c,0x5d,0x3a,
0x23,0x00,0x00,0x00,0x6d,0x6f,0x64,0x65,0x6c,0x2f,0x63,0x6f,
0x6e,0x76,0x31,0x64,0x2f,0x42,0x69,0x61,0x73,0x41,0x64,0x64,
0x2f,0x52,0x65,0x61,0x64,0x56,0x61,0x72,0x69,0x61,0x62,0x6c,
0x65,0x4f,0x70,0x00,0x01,0x00,0x00,0x00,0x10,0x00,0x00,0x00,
0x3e,0xfc,0xff,0xff,0x00,0x00,0x00,0x01,0x14,0x00,0x00,0x00,
0xe4,0x00,0x00,0x00,0x08,0x00,0x00,0x00,0x00,0x00,0x00,0x09,
0xf4,0x00,0x00,0x00,0xac,0xfb,0xff,0xff,0x08,0x00,0x00,0x00,
0x88,0x00,0x00,0x00,0x10,0x00,0x00,0x00,0x00,0x00,0x00,0x00,
0x00,0x00,0x00,0x00,0x00,0x00,0x00,0x00,0x00,0x00,0x00,0x00,
0x00,0x00,0x00,0x00,0x00,0x00,0x00,0x00,0x00,0x00,0x00,0x00,
0x00,0x00,0x00,0x00,0x00,0x00,0x00,0x00,0x00,0x00,0x00,0x00,
0x00,0x00,0x00,0x00,0x00,0x00,0x00,0x00,0x00,0x00,0x00,0x00,
0x00,0x00,0x00,0x00,0x00,0x00,0x00,0x00,0x00,0x00,0x00,0x00,
0x00,0x00,0x00,0x00,0x00,0x00,0x00,0x00,0x00,0x00,0x00,0x00,
0x00,0x00,0x00,0x00,0x00,0x00,0x00,0x00,0x00,0x00,0x00,0x00,
0x00,0x00,0x00,0x00,0x00,0x00,0x00,0x00,0x00,0x00,0x00,0x00,
0x00,0x00,0x00,0x00,0x00,0x00,0x00,0x00,0x00,0x00,0x00,0x00,
0x00,0x00,0x00,0x00,0x00,0x00,0x00,0x00,0x00,0x00,0x00,0x00,
0x00,0x00,0x00,0x00,0x10,0x00,0x00,0x00,0x1e,0xaa,0xfb,0x3a,
0x1d,0xf4,0xdb,0x3a,0xe0,0x9b,0x02,0x3b,0x65,0x68,0xfe,0x3a,
0xb2,0xd0,0xf9,0x3a,0x49,0x97,0x03,0x3b,0x3a,0xd4,0xfd,0x3a,
0xa5,0x3e,0xf1,0x3a,0x66,0x19,0x06,0x3b,0x15,0x21,0xdc,0x3a,
0xd9,0x14,0xf9,0x3a,0x71,0x46,0x02,0x3b,0x81,0xe5,0xdb,0x3a,
0x30,0xfe,0xea,0x3a,0xf5,0x4b,0xd2,0x3a,0x09,0xa7,0xe1,0x3a,
0x15,0x00,0x00,0x00,0x6d,0x6f,0x64,0x65,0x6c,0x2f,0x63,0x6f,
0x6e,0x76,0x31,0x64,0x5f,0x31,0x2f,0x43,0x6f,0x6e,0x76,0x31,
0x44,0x00,0x00,0x00,0x04,0x00,0x00,0x00,0x10,0x00,0x00,0x00,
0x01,0x00,0x00,0x00,0x05,0x00,0x00,0x00,0x10,0x00,0x00,0x00,
0x5e,0xfd,0xff,0xff,0x00,0x00,0x00,0x01,0x14,0x00,0x00,0x00,
0xe8,0x00,0x00,0x00,0x07,0x00,0x00,0x00,0x00,0x00,0x00,0x02,
0x08,0x01,0x00,0x00,0xcc,0xfc,0xff,0xff,0x08,0x00,0x00,0x00,
0x8c,0x00,0x00,0x00,0x10,0x00,0x00,0x00,0x00,0x00,0x00,0x00,
0x00,0x00,0x00,0x00,0x00,0x00,0x00,0x00,0x00,0x00,0x00,0x00,
0x00,0x00,0x00,0x00,0x00,0x00,0x00,0x00,0x00,0x00,0x00,0x00,
0x00,0x00,0x00,0x00,0x00,0x00,0x00,0x00,0x00,0x00,0x00,0x00,
0x00,0x00,0x00,0x00,0x00,0x00,0x00,0x00,0x00,0x00,0x00,0x00,
0x00,0x00,0x00,0x00,0x00,0x00,0x00,0x00,0x00,0x00,0x00,0x00,
0x00,0x00,0x00,0x00,0x00,0x00,0x00,0x00,0x00,0x00,0x00,0x00,
0x00,0x00,0x00,0x00,0x00,0x00,0x00,0x00,0x00,0x00,0x00,0x00,
0x00,0x00,0x00,0x00,0x00,0x00,0x00,0x00,0x00,0x00,0x00,0x00,
0x00,0x00,0x00,0x00,0x00,0x00,0x00,0x00,0x00,0x00,0x00,0x00,
0x00,0x00,0x00,0x00,0x00,0x00,0x00,0x00,0x00,0x00,0x00,0x00,
0x00,0x00,0x00,0x00,0x00,0x00,0x00,0x00,0x10,0x00,0x00,0x00,
0x85,0x97,0x1a,0x39,0xd0,0x1c,0x07,0x39,0xd1,0x75,0x20,0x39,
0xea,0x46,0x1c,0x39,0xb5,0x74,0x19,0x39,0xb0,0xaa,0x21,0x39,
0xe6,0xeb,0x1b,0x39,0xf4,0x30,0x14,0x39,0x90,0xbf,0x24,0x39,
0x70,0x38,0x07,0x39,0x51,0x01,0x19,0x39,0xdc,0x0c,0x20,0x39,
0xd7,0x13,0x07,0x39,0xd4,0x59,0x10,0x39,0x39,0x2e,0x01,0x39,
0xff,0x9c,0x0a,0x39,0x25,0x00,0x00,0x00,0x6d,0x6f,0x64,0x65,
0x6c,0x2f,0x63,0x6f,0x6e,0x76,0x31,0x64,0x5f,0x31,0x2f,0x42,
0x69,0x61,0x73,0x41,0x64,0x64,0x2f,0x52,0x65,0x61,0x64,0x56,
0x61,0x72,0x69,0x61,0x62,0x6c,0x65,0x4f,0x70,0x00,0x00,0x00,
0x01,0x00,0x00,0x00,0x10,0x00,0x00,0x00,0x86,0xfe,0xff,0xff,
0x00,0x00,0x00,0x01,0x14,0x00,0x00,0x00,0x30,0x00,0x00,0x00,
0x06,0x00,0x00,0x00,0x00,0x00,0x00,0x09,0x3c,0x00,0x00,0x00,
0xf4,0xfd,0xff,0xff,0x08,0x00,0x00,0x00,0x10,0x00,0x00,0x00,
0x01,0x00,0x00,0x00,0x00,0x00,0x00,0x00,0x00,0x00,0x00,0x00,
0x01,0x00,0x00,0x00,0xc3,0x68,0xa2,0x3b,0x12,0x00,0x00,0x00,
0x6d,0x6f,0x64,0x65,0x6c,0x2f,0x64,0x65,0x6e,0x73,0x65,0x2f,
0x4d,0x61,0x74,0x4d,0x75,0x6c,0x00,0x00,0x02,0x00,0x00,0x00,
0x02,0x00,0x00,0x00,0x10,0x00,0x00,0x00,0xe6,0xfe,0xff,0xff,
0x00,0x00,0x00,0x01,0x14,0x00,0x00,0x00,0x30,0x00,0x00,0x00,
0x05,0x00,0x00,0x00,0x00,0x00,0x00,0x02,0x4c,0x00,0x00,0x00,
0x54,0xfe,0xff,0xff,0x08,0x00,0x00,0x00,0x10,0x00,0x00,0x00,
0x01,0x00,0x00,0x00,0x00,0x00,0x00,0x00,0x00,0x00,0x00,0x00,
0x01,0x00,0x00,0x00,0x50,0xc2,0xa4,0x38,0x22,0x00,0x00,0x00,
0x6d,0x6f,0x64,0x65,0x6c,0x2f,0x64,0x65,0x6e,0x73,0x65,0x2f,
0x42,0x69,0x61,0x73,0x41,0x64,0x64,0x2f,0x52,0x65,0x61,0x64,
0x56,0x61,0x72,0x69,0x61,0x62,0x6c,0x65,0x4f,0x70,0x00,0x00,
0x01,0x00,0x00,0x00,0x02,0x00,0x00,0x00,0x52,0xff,0xff,0xff,
0x00,0x00,0x00,0x01,0x14,0x00,0x00,0x00,0x14,0x00,0x00,0x00,
0x04,0x00,0x00,0x00,0x00,0x00,0x00,0x02,0x44,0x00,0x00,0x00,
0x3c,0xff,0xff,0xff,0x35,0x00,0x00,0x00,0x6d,0x6f,0x64,0x65,
0x6c,0x2f,0x67,0x6c,0x6f,0x62,0x61,0x6c,0x5f,0x61,0x76,0x65,
0x72,0x61,0x67,0x65,0x5f,0x70,0x6f,0x6f,0x6c,0x69,0x6e,0x67,
0x31,0x64,0x2f,0x4d,0x65,0x61,0x6e,0x2f,0x72,0x65,0x64,0x75,
0x63,0x74,0x69,0x6f,0x6e,0x5f,0x69,0x6e,0x64,0x69,0x63,0x65,
0x73,0x00,0x00,0x00,0x00,0x00,0x00,0x00,0xb2,0xff,0xff,0xff,
0x00,0x00,0x00,0x01,0x14,0x00,0x00,0x00,0x14,0x00,0x00,0x00,
0x03,0x00,0x00,0x00,0x00,0x00,0x00,0x02,0x2c,0x00,0x00,0x00,
0x9c,0xff,0xff,0xff,0x1d,0x00,0x00,0x00,0x6d,0x6f,0x64,0x65,
0x6c,0x2f,0x63,0x6f,0x6e,0x76,0x31,0x64,0x5f,0x31,0x2f,0x43,
0x6f,0x6e,0x76,0x31,0x44,0x2f,0x53,0x71,0x75,0x65,0x65,0x7a,
0x65,0x00,0x00,0x00,0x01,0x00,0x00,0x00,0x03,0x00,0x00,0x00,
0x00,0x00,0x16,0x00,0x1c,0x00,0x18,0x00,0x17,0x00,0x10,0x00,
0x0c,0x00,0x08,0x00,0x00,0x00,0x00,0x00,0x00,0x00,0x07,0x00,
0x16,0x00,0x00,0x00,0x00,0x00,0x00,0x01,0x18,0x00,0x00,0x00,
0x18,0x00,0x00,0x00,0x02,0x00,0x00,0x00,0x00,0x00,0x00,0x02,
0x34,0x00,0x00,0x00,0x04,0x00,0x04,0x00,0x04,0x00,0x00,0x00,
0x22,0x00,0x00,0x00,0x6d,0x6f,0x64,0x65,0x6c,0x2f,0x63,0x6f,
0x6e,0x76,0x31,0x64,0x2f,0x43,0x6f,0x6e,0x76,0x31,0x44,0x2f,
0x45,0x78,0x70,0x61,0x6e,0x64,0x44,0x69,0x6d,0x73,0x2f,0x64,
0x69,0x6d,0x00,0x00,0x00,0x00,0x00,0x00,0x00,0x00,0x16,0x00,
0x20,0x00,0x1c,0x00,0x1b,0x00,0x14,0x00,0x10,0x00,0x0c,0x00,
0x00,0x00,0x00,0x00,0x08,0x00,0x07,0x00,0x16,0x00,0x00,0x00,
0x00,0x00,0x00,0x01,0x18,0x00,0x00,0x00,0x30,0x00,0x00,0x00,
0x50,0x00,0x00,0x00,0x01,0x00,0x00,0x00,0x00,0x00,0x00,0x09,
0x64,0x00,0x00,0x00,0x03,0x00,0x00,0x00,0xff,0xff,0xff,0xff,
0x4b,0x00,0x00,0x00,0x08,0x00,0x00,0x00,0x0c,0x00,0x0c,0x00,
0x00,0x00,0x00,0x00,0x08,0x00,0x04,0x00,0x0c,0x00,0x00,0x00,
0x08,0x00,0x00,0x00,0x14,0x00,0x00,0x00,0x01,0x00,0x00,0x00,
0x36,0x00,0x00,0x00,0x00,0x00,0x00,0x00,0x00,0x00,0x00,0x00,
0x01,0x00,0x00,0x00,0x7e,0x50,0xdf,0x3e,0x19,0x00,0x00,0x00,
0x73,0x65,0x72,0x76,0x69,0x6e,0x67,0x5f,0x64,0x65,0x66,0x61,
0x75,0x6c,0x74,0x5f,0x69,0x6e,0x70,0x75,0x74,0x5f,0x31,0x3a,
0x30,0x00,0x00,0x00,0x03,0x00,0x00,0x00,0x01,0x00,0x00,0x00,
0x4b,0x00,0x00,0x00,0x08,0x00,0x00,0x00,0x06,0x00,0x00,0x00,
0x7c,0x00,0x00,0x00,0x5c,0x00,0x00,0x00,0x40,0x00,0x00,0x00,
0x2c,0x00,0x00,0x00,0x18,0x00,0x00,0x00,0x04,0x00,0x00,0x00,
0xc4,0xff,0xff,0xff,0x19,0x00,0x00,0x00,0x02,0x00,0x00,0x00,
0x00,0x00,0x00,0x19,0xd4,0xff,0xff,0xff,0x09,0x00,0x00,0x00,
0x04,0x00,0x00,0x00,0x00,0x00,0x00,0x09,0xe4,0xff,0xff,0xff,
0x28,0x00,0x00,0x00,0x02,0x00,0x00,0x00,0x00,0x00,0x00,0x28,
0xd8,0xff,0xff,0xff,0x16,0x00,0x00,0x00,0x00,0x00,0x00,0x16,
0x0c,0x00,0x10,0x00,0x0f,0x00,0x00,0x00,0x08,0x00,0x04,0x00,
0x0c,0x00,0x00,0x00,0x03,0x00,0x00,0x00,0x03,0x00,0x00,0x00,
0x00,0x00,0x00,0x03,0x0c,0x00,0x0c,0x00,0x0b,0x00,0x00,0x00,
0x00,0x00,0x04,0x00,0x0c,0x00,0x00,0x00,0x46,0x00,0x00,0x00,
0x00,0x00,0x00,0x46,
};

extern const unsigned int g_model_len = sizeof(g_model);

#if defined(__cplusplus)
}
#endif
